unsigned char water_level_model_tflite[] = {
  0x1c, 0x00, 0x00, 0x00, 0x54, 0x46, 0x4c, 0x33, 0x14, 0x00, 0x20, 0x00,
  0x1c, 0x00, 0x18, 0x00, 0x14, 0x00, 0x10, 0x00, 0x0c, 0x00, 0x00, 0x00,
  0x08, 0x00, 0x04, 0x00, 0x14, 0x00, 0x00, 0x00, 0x1c, 0x00, 0x00, 0x00,
  0x98, 0x00, 0x00, 0x00, 0xf0, 0x00, 0x00, 0x00, 0x3c, 0x07, 0x00, 0x00,
  0x4c, 0x07, 0x00, 0x00, 0xb0, 0x0b, 0x00, 0x00, 0x03, 0x00, 0x00, 0x00,
  0x01, 0x00, 0x00, 0x00, 0x10, 0x00, 0x00, 0x00, 0x00, 0x00, 0x0a, 0x00,
  0x10, 0x00, 0x0c, 0x00, 0x08, 0x00, 0x04, 0x00, 0x0a, 0x00, 0x00, 0x00,
  0x0c, 0x00, 0x00, 0x00, 0x1c, 0x00, 0x00, 0x00, 0x3c, 0x00, 0x00, 0x00,
  0x0f, 0x00, 0x00, 0x00, 0x73, 0x65, 0x72, 0x76, 0x69, 0x6e, 0x67, 0x5f,
  0x64, 0x65, 0x66, 0x61, 0x75, 0x6c, 0x74, 0x00, 0x01, 0x00, 0x00, 0x00,
  0x04, 0x00, 0x00, 0x00, 0x90, 0xff, 0xff, 0xff, 0x07, 0x00, 0x00, 0x00,
  0x04, 0x00, 0x00, 0x00, 0x08, 0x00, 0x00, 0x00, 0x6f, 0x75, 0x74, 0x70,
  0x75, 0x74, 0x5f, 0x30, 0x00, 0x00, 0x00, 0x00, 0x01, 0x00, 0x00, 0x00,
  0x04, 0x00, 0x00, 0x00, 0xae, 0xf8, 0xff, 0xff, 0x04, 0x00, 0x00, 0x00,
  0x0c, 0x00, 0x00, 0x00, 0x6b, 0x65, 0x72, 0x61, 0x73, 0x5f, 0x74, 0x65,
  0x6e, 0x73, 0x6f, 0x72, 0x00, 0x00, 0x00, 0x00, 0x02, 0x00, 0x00, 0x00,
  0x34, 0x00, 0x00, 0x00, 0x04, 0x00, 0x00, 0x00, 0xdc, 0xff, 0xff, 0xff,
  0x0a, 0x00, 0x00, 0x00, 0x04, 0x00, 0x00, 0x00, 0x13, 0x00, 0x00, 0x00,
  0x43, 0x4f, 0x4e, 0x56, 0x45, 0x52, 0x53, 0x49, 0x4f, 0x4e, 0x5f, 0x4d,
  0x45, 0x54, 0x41, 0x44, 0x41, 0x54, 0x41, 0x00, 0x08, 0x00, 0x0c, 0x00,
  0x08, 0x00, 0x04, 0x00, 0x08, 0x00, 0x00, 0x00, 0x09, 0x00, 0x00, 0x00,
  0x04, 0x00, 0x00, 0x00, 0x13, 0x00, 0x00, 0x00, 0x6d, 0x69, 0x6e, 0x5f,
  0x72, 0x75, 0x6e, 0x74, 0x69, 0x6d, 0x65, 0x5f, 0x76, 0x65, 0x72, 0x73,
  0x69, 0x6f, 0x6e, 0x00, 0x0b, 0x00, 0x00, 0x00, 0x48, 0x06, 0x00, 0x00,
  0x40, 0x06, 0x00, 0x00, 0xf0, 0x04, 0x00, 0x00, 0xcc, 0x04, 0x00, 0x00,
  0x7c, 0x04, 0x00, 0x00, 0xac, 0x00, 0x00, 0x00, 0xa4, 0x00, 0x00, 0x00,
  0x9c, 0x00, 0x00, 0x00, 0x94, 0x00, 0x00, 0x00, 0x74, 0x00, 0x00, 0x00,
  0x04, 0x00, 0x00, 0x00, 0x56, 0xf9, 0xff, 0xff, 0x04, 0x00, 0x00, 0x00,
  0x60, 0x00, 0x00, 0x00, 0x10, 0x00, 0x00, 0x00, 0x00, 0x00, 0x00, 0x00,
  0x08, 0x00, 0x0e, 0x00, 0x08, 0x00, 0x04, 0x00, 0x08, 0x00, 0x00, 0x00,
  0x10, 0x00, 0x00, 0x00, 0x24, 0x00, 0x00, 0x00, 0x00, 0x00, 0x06, 0x00,
  0x08, 0x00, 0x04, 0x00, 0x06, 0x00, 0x00, 0x00, 0x04, 0x00, 0x00, 0x00,
  0x00, 0x00, 0x00, 0x00, 0x0c, 0x00, 0x18, 0x00, 0x14, 0x00, 0x10, 0x00,
  0x0c, 0x00, 0x04, 0x00, 0x0c, 0x00, 0x00, 0x00, 0x69, 0xaf, 0xb9, 0x91,
  0xed, 0xbd, 0x0a, 0x32, 0x02, 0x00, 0x00, 0x00, 0x02, 0x00, 0x00, 0x00,
  0x04, 0x00, 0x00, 0x00, 0x06, 0x00, 0x00, 0x00, 0x32, 0x2e, 0x31, 0x39,
  0x2e, 0x30, 0x00, 0x00, 0xc2, 0xf9, 0xff, 0xff, 0x04, 0x00, 0x00, 0x00,
  0x10, 0x00, 0x00, 0x00, 0x31, 0x2e, 0x35, 0x2e, 0x30, 0x00, 0x00, 0x00,
  0x00, 0x00, 0x00, 0x00, 0x00, 0x00, 0x00, 0x00, 0x24, 0xf6, 0xff, 0xff,
  0x28, 0xf6, 0xff, 0xff, 0x2c, 0xf6, 0xff, 0xff, 0xea, 0xf9, 0xff, 0xff,
  0x04, 0x00, 0x00, 0x00, 0xc0, 0x03, 0x00, 0x00, 0x29, 0x63, 0xb4, 0xbe,
  0xbd, 0x32, 0xe8, 0xbe, 0xec, 0x95, 0x10, 0xbe, 0x60, 0xda, 0xc1, 0xbe,
  0xfc, 0x56, 0x5e, 0xbd, 0xe4, 0x89, 0x15, 0x3e, 0xbd, 0xb0, 0x85, 0x3e,
  0xe3, 0x88, 0x2b, 0x3e, 0xba, 0x3c, 0x95, 0xbd, 0xd5, 0xbd, 0x05, 0x3e,
  0xc0, 0x6e, 0x33, 0x3f, 0x57, 0x35, 0xb6, 0xbd, 0x9a, 0x88, 0xcd, 0x3e,
  0x67, 0xe0, 0x7c, 0xbc, 0xf7, 0xed, 0x89, 0x3e, 0x49, 0x05, 0x08, 0x3f,
  0x04, 0x2a, 0x99, 0x3e, 0xc6, 0xe1, 0xb0, 0x3c, 0x40, 0xc1, 0x29, 0x3f,
  0x76, 0xdf, 0xa5, 0xbc, 0xc2, 0x17, 0xfa, 0x3d, 0xcb, 0x15, 0xd6, 0x3d,
  0xb6, 0x75, 0x31, 0xbe, 0x6c, 0x21, 0x51, 0xbe, 0x05, 0x73, 0x78, 0x3c,
  0xf6, 0xb7, 0xb3, 0xbe, 0x71, 0xe8, 0x3b, 0xbf, 0x93, 0xf4, 0xfe, 0xbe,
  0x23, 0xcd, 0x2c, 0xbf, 0x66, 0x66, 0x1a, 0xbf, 0x40, 0x81, 0x02, 0xbf,
  0x84, 0xb2, 0x93, 0xbf, 0x16, 0xd2, 0xce, 0xbd, 0x27, 0x89, 0x65, 0x3e,
  0x4f, 0x35, 0x83, 0x3e, 0xf0, 0x20, 0xa5, 0xbc, 0x64, 0xee, 0x1f, 0xbe,
  0xc4, 0xb8, 0xab, 0x3d, 0x6c, 0xf4, 0xe3, 0x3e, 0xd7, 0x0a, 0x1a, 0x3f,
  0x12, 0xc8, 0x12, 0x3f, 0x5b, 0xb5, 0x88, 0xbe, 0xdf, 0x80, 0x3b, 0x3e,
  0x19, 0x11, 0xca, 0xbd, 0xdd, 0x91, 0x34, 0xbe, 0x08, 0xc6, 0x32, 0xbd,
  0x56, 0x00, 0xe7, 0xbe, 0xbb, 0x41, 0xba, 0xbe, 0xb3, 0xa7, 0x89, 0xbe,
  0x91, 0xd6, 0xd9, 0xbc, 0xaa, 0x0e, 0xf3, 0x3e, 0x21, 0xad, 0xa8, 0x3e,
  0xd0, 0x74, 0xbc, 0xbe, 0x2a, 0x56, 0x9e, 0x3e, 0x72, 0x08, 0x1e, 0x3f,
  0xf9, 0x85, 0x39, 0x3f, 0x0e, 0xfc, 0xf7, 0x3e, 0x7f, 0x6b, 0x49, 0xbd,
  0x73, 0x85, 0x29, 0x3f, 0x26, 0xbe, 0x60, 0x3f, 0x70, 0xc2, 0x27, 0xbe,
  0x1e, 0xdb, 0x9e, 0x3e, 0x30, 0x59, 0x6f, 0xbd, 0x46, 0x09, 0xc7, 0x3e,
  0xc6, 0xdf, 0x0e, 0x3f, 0x6c, 0xea, 0x70, 0xbe, 0xad, 0x4e, 0xdc, 0x3e,
  0xcf, 0xad, 0x82, 0x3e, 0x2b, 0xc1, 0x88, 0x3e, 0x93, 0x51, 0x77, 0x3d,
  0x79, 0xd7, 0x8e, 0x3e, 0x35, 0x5d, 0x20, 0x3f, 0x16, 0x41, 0x41, 0x3e,
  0x3d, 0x59, 0x0e, 0xbe, 0xac, 0xaf, 0xea, 0xbd, 0x29, 0xd4, 0x5c, 0x3e,
  0x9f, 0x10, 0xfd, 0x3e, 0xd8, 0x1f, 0x2c, 0x3e, 0x94, 0x86, 0x22, 0x3d,
  0x5a, 0x3d, 0x9a, 0x3e, 0x4b, 0xd8, 0xf1, 0xbd, 0xcb, 0x1e, 0x77, 0x3d,
  0xfd, 0xe5, 0xe2, 0x3e, 0x7f, 0x5c, 0xd3, 0x3e, 0xce, 0xae, 0x03, 0xbe,
  0x81, 0x0f, 0x9b, 0x3e, 0xab, 0x5e, 0x83, 0x3e, 0xb7, 0x7e, 0x4f, 0x3e,
  0x8d, 0x42, 0x7b, 0xbe, 0x2a, 0x3f, 0x06, 0xbe, 0xeb, 0x0c, 0x78, 0xbd,
  0x6b, 0x15, 0xb6, 0x3e, 0x61, 0x3f, 0x01, 0x3e, 0xe4, 0x55, 0x68, 0xbd,
  0x67, 0xff, 0xf7, 0x3c, 0x59, 0xc8, 0x6b, 0x3e, 0x14, 0x7c, 0x6b, 0xbe,
  0x15, 0xf5, 0x66, 0x3e, 0x52, 0x02, 0x42, 0xbe, 0x3b, 0xea, 0x77, 0x3e,
  0x9c, 0x0e, 0xe3, 0x3b, 0xe1, 0xbe, 0xc3, 0x3e, 0x81, 0x29, 0x28, 0xbe,
  0x13, 0xbd, 0xee, 0x3d, 0x82, 0xca, 0x86, 0xbe, 0xb9, 0xc5, 0x72, 0xbe,
  0x76, 0x29, 0xa5, 0x3e, 0x26, 0xfb, 0x78, 0xbd, 0x3d, 0x37, 0x81, 0xbe,
  0x3d, 0xe6, 0x49, 0x3e, 0xfd, 0x9e, 0xad, 0x3c, 0x04, 0xe4, 0xb3, 0xbe,
  0x36, 0x5b, 0x00, 0xbe, 0x2e, 0x31, 0xac, 0xbe, 0x30, 0x22, 0xe2, 0xbd,
  0xf8, 0x6c, 0xe1, 0xbc, 0xea, 0xbe, 0xc6, 0xbc, 0x7f, 0x2c, 0x8e, 0x3e,
  0xca, 0xe7, 0x9b, 0xbe, 0x88, 0x86, 0xbc, 0xbe, 0xac, 0xce, 0x3b, 0xbe,
  0x51, 0xb5, 0x9c, 0x3e, 0x8e, 0x31, 0x9d, 0x3e, 0x75, 0xdd, 0xb9, 0xbe,
  0xda, 0x55, 0xcb, 0xbe, 0x7f, 0xa6, 0x00, 0x3e, 0x0b, 0x10, 0x83, 0xbd,
  0x6b, 0xdb, 0xe2, 0xbb, 0xda, 0xd7, 0xed, 0xbd, 0x77, 0x8d, 0x03, 0xbf,
  0xcb, 0x43, 0x9f, 0xbe, 0x1e, 0x72, 0x9c, 0xbe, 0x55, 0x27, 0x7a, 0xbe,
  0x1b, 0xd1, 0x94, 0xbd, 0xf3, 0x96, 0x78, 0xbe, 0x0b, 0x4a, 0x2e, 0xbe,
  0x96, 0x4d, 0x74, 0xbe, 0x28, 0xba, 0x81, 0x3e, 0x87, 0x9c, 0xa4, 0xbe,
  0x55, 0x86, 0x91, 0x3e, 0xbb, 0xcd, 0x7e, 0xbe, 0x48, 0x4f, 0x2d, 0xbe,
  0xfb, 0x4a, 0xb0, 0xbe, 0x17, 0xb9, 0x87, 0xbe, 0xbf, 0x23, 0x8b, 0x3d,
  0xad, 0x8a, 0xf5, 0x3d, 0xfd, 0x59, 0x3d, 0xbe, 0xa4, 0xe4, 0xcb, 0xbd,
  0xe7, 0x0e, 0x4e, 0xbe, 0xf7, 0xf2, 0x85, 0xbe, 0xc9, 0x63, 0x06, 0x3d,
  0xc7, 0x55, 0x06, 0xbf, 0x5d, 0x1a, 0x7f, 0xbe, 0xa9, 0xe8, 0x2d, 0xbe,
  0x9d, 0x2f, 0xd5, 0xbe, 0x12, 0x89, 0x31, 0xbe, 0x8f, 0x28, 0xeb, 0xbe,
  0x2c, 0x19, 0x29, 0x3e, 0x69, 0x60, 0x67, 0xbe, 0xca, 0xfd, 0xd3, 0x3e,
  0x1e, 0x4c, 0x9b, 0x3e, 0x29, 0x06, 0xf5, 0x3c, 0x50, 0xd1, 0xa8, 0x3e,
  0xd4, 0xb4, 0x2c, 0x3e, 0x40, 0x86, 0xb2, 0x3e, 0x94, 0x02, 0xf3, 0xbc,
  0x44, 0xb5, 0xa8, 0xbe, 0xf9, 0x80, 0x77, 0xbe, 0x25, 0x88, 0x34, 0xbf,
  0x65, 0x40, 0x14, 0x3d, 0xdf, 0x4a, 0xf8, 0xbe, 0x1d, 0x71, 0xdc, 0xbd,
  0x78, 0xf7, 0x79, 0x3e, 0xd8, 0x37, 0xea, 0x3e, 0xe2, 0x8f, 0x26, 0x3e,
  0x67, 0x1c, 0x1d, 0x3e, 0xfa, 0xf7, 0x60, 0x3e, 0x65, 0xfa, 0x34, 0x3f,
  0xf6, 0xb1, 0x5d, 0x3d, 0x0a, 0xe0, 0x2e, 0x3f, 0x36, 0x6b, 0xb7, 0x3e,
  0x43, 0xae, 0xc7, 0x3e, 0x53, 0x9d, 0xdd, 0xbd, 0x25, 0x58, 0x0f, 0xbe,
  0xce, 0x5c, 0xc5, 0x3e, 0xb9, 0x6a, 0x22, 0xbe, 0x0e, 0x4b, 0xa4, 0x3e,
  0xbb, 0xbe, 0x6e, 0x3e, 0x0c, 0xe4, 0x60, 0x3e, 0x07, 0xa9, 0x87, 0xbe,
  0x15, 0x9f, 0xc6, 0x3b, 0xb2, 0x9a, 0xa5, 0xbd, 0x4d, 0xc6, 0x1e, 0xbf,
  0xfe, 0x4f, 0x0b, 0xbd, 0x4a, 0x42, 0xe5, 0xbd, 0xb1, 0x7d, 0x83, 0xba,
  0x45, 0xdc, 0x37, 0x3e, 0x9d, 0x02, 0x1f, 0xbe, 0xfd, 0x74, 0x47, 0x3e,
  0x5d, 0x0a, 0xca, 0x3e, 0x1e, 0xe3, 0x20, 0xbe, 0xb3, 0x9d, 0xfa, 0xbe,
  0x6f, 0x79, 0xc6, 0xbe, 0xe2, 0x8e, 0x9b, 0x3e, 0x95, 0x72, 0xd2, 0xbe,
  0x6f, 0x47, 0x7a, 0xbd, 0x24, 0xd8, 0x01, 0xbf, 0x2d, 0x89, 0xb3, 0xbe,
  0x89, 0x25, 0xa6, 0xbd, 0x96, 0xfa, 0x71, 0xbe, 0xe7, 0x0f, 0xa0, 0x3e,
  0xb0, 0x2c, 0x96, 0xbe, 0x19, 0x18, 0x31, 0x3e, 0x51, 0xd4, 0xca, 0xbd,
  0xf7, 0xf7, 0x6d, 0xbd, 0x91, 0x0e, 0x13, 0xbd, 0x55, 0x28, 0xad, 0xbe,
  0x0b, 0x6c, 0x3f, 0x3e, 0x9b, 0x38, 0xf0, 0xbe, 0xca, 0x11, 0xb1, 0x3d,
  0x5d, 0xfa, 0x54, 0x3e, 0x89, 0xfd, 0x9b, 0xbe, 0xdc, 0x55, 0x8e, 0x3e,
  0x35, 0x1a, 0xc3, 0xbe, 0xe4, 0x88, 0xe2, 0x3d, 0xa9, 0x88, 0x4b, 0x3e,
  0x17, 0x96, 0x09, 0x3d, 0x9d, 0x9e, 0xfe, 0x3d, 0x36, 0xee, 0x8f, 0x3d,
  0x3c, 0xb6, 0xf3, 0x3d, 0x2c, 0x87, 0xb1, 0xbe, 0x3c, 0xe3, 0x76, 0x3e,
  0x59, 0xe1, 0x83, 0x3d, 0xc8, 0xb1, 0xe8, 0xbe, 0x44, 0x65, 0xb4, 0xbd,
  0x52, 0xca, 0xf5, 0xbe, 0xa8, 0xca, 0x0e, 0x3e, 0x21, 0xba, 0x0f, 0xbf,
  0x28, 0xf6, 0x04, 0xbd, 0x08, 0xb8, 0x6c, 0x3d, 0xb6, 0xfd, 0xff, 0xff,
  0x04, 0x00, 0x00, 0x00, 0x40, 0x00, 0x00, 0x00, 0xad, 0xb1, 0xeb, 0x3d,
  0x4c, 0xe4, 0x99, 0x3e, 0xbe, 0x80, 0x26, 0x3f, 0x45, 0xc2, 0xf6, 0x3d,
  0xb8, 0x29, 0x8a, 0xbe, 0xda, 0xbf, 0x9a, 0xbe, 0x8c, 0x05, 0xd3, 0xbd,
  0xff, 0x56, 0xdb, 0x3c, 0xb0, 0x3b, 0xe5, 0x3d, 0x52, 0x49, 0x1a, 0xbd,
  0xc6, 0x1c, 0x08, 0x3a, 0x4f, 0x3c, 0x69, 0x3c, 0x5a, 0xd3, 0xeb, 0xbd,
  0x2d, 0xbf, 0xbc, 0x3e, 0x2e, 0x57, 0x96, 0x3d, 0x8e, 0x76, 0x40, 0x3d,
  0x02, 0xfe, 0xff, 0xff, 0x04, 0x00, 0x00, 0x00, 0x14, 0x00, 0x00, 0x00,
  0xd7, 0x22, 0x2b, 0xbe, 0x59, 0xe5, 0x04, 0xbe, 0x05, 0x48, 0x28, 0x3b,
  0x4c, 0x4d, 0x8b, 0xbe, 0xac, 0xc5, 0x03, 0x3f, 0x22, 0xfe, 0xff, 0xff,
  0x04, 0x00, 0x00, 0x00, 0x40, 0x01, 0x00, 0x00, 0x74, 0x97, 0x92, 0xbe,
  0x27, 0xb2, 0x3b, 0x3f, 0x8f, 0x1b, 0x5e, 0xbf, 0xb2, 0x8f, 0x27, 0xbf,
  0xb6, 0x09, 0x1c, 0xbe, 0xce, 0xc6, 0x81, 0x3e, 0xfe, 0x3b, 0xe4, 0xbe,
  0x01, 0x13, 0xa2, 0xbe, 0xf0, 0xb2, 0x85, 0x3e, 0x97, 0x9e, 0x71, 0xbe,
  0xa4, 0xb0, 0xb5, 0xbe, 0x3d, 0x03, 0x11, 0xbf, 0xf4, 0x9a, 0x5c, 0x3e,
  0xe1, 0x8d, 0x78, 0x3e, 0x7c, 0xfc, 0x9c, 0x3d, 0xaf, 0xac, 0x26, 0x3f,
  0xed, 0x22, 0xd9, 0xbe, 0xd1, 0xad, 0x03, 0x3f, 0xf7, 0x68, 0x0d, 0xbf,
  0x5c, 0x27, 0xd4, 0xbe, 0x51, 0x2a, 0x52, 0x3e, 0xec, 0x71, 0x65, 0x3e,
  0x52, 0x76, 0x33, 0x3e, 0x4d, 0xef, 0xeb, 0x3d, 0x08, 0xe2, 0xba, 0x3e,
  0x37, 0x9b, 0xd2, 0x3e, 0xf9, 0x55, 0x2b, 0xbf, 0x25, 0x71, 0xbf, 0xbe,
  0xb4, 0x6f, 0x3b, 0xbe, 0x4a, 0x8c, 0x63, 0xbe, 0xcc, 0x08, 0xa4, 0xbd,
  0xdf, 0xec, 0xdc, 0x3e, 0x10, 0xc1, 0x13, 0x3f, 0x0f, 0x11, 0x49, 0xbf,
  0xef, 0x7f, 0xa1, 0xbe, 0x7e, 0x26, 0x5b, 0x3d, 0x05, 0x3f, 0x9d, 0xbe,
  0xbc, 0xc8, 0x1e, 0xbe, 0x63, 0xb7, 0xc7, 0x3e, 0xf8, 0x52, 0xeb, 0xbe,
  0x0f, 0x3e, 0xa2, 0xbe, 0x9d, 0x01, 0x26, 0xbf, 0xf5, 0xd6, 0x60, 0x3f,
  0x4d, 0x88, 0xfb, 0x3e, 0x47, 0xfb, 0x57, 0x3e, 0x28, 0xe1, 0x99, 0xbf,
  0x3e, 0x3d, 0x77, 0x3c, 0x1c, 0xa5, 0x5a, 0xbf, 0x9b, 0x3c, 0x06, 0x3f,
  0xe5, 0x9c, 0x95, 0x3d, 0x70, 0xa5, 0x73, 0xbe, 0x92, 0xea, 0xa8, 0xbc,
  0x72, 0xb5, 0x40, 0x3e, 0xb7, 0xd7, 0x17, 0x3f, 0x9f, 0xe8, 0x58, 0x3e,
  0x22, 0x34, 0x94, 0x3e, 0xc3, 0x1f, 0xaf, 0x3d, 0x51, 0x43, 0x66, 0x3e,
  0x7b, 0x8e, 0xba, 0x3e, 0x21, 0x5e, 0x11, 0x3e, 0xf4, 0xe8, 0x2b, 0x3e,
  0xfd, 0x5c, 0x17, 0xbf, 0xf5, 0xe1, 0xd5, 0xbe, 0x1e, 0x22, 0xa7, 0xbe,
  0x26, 0xe8, 0x31, 0xbf, 0x99, 0xbf, 0xf1, 0x3e, 0xad, 0x90, 0xdc, 0xbd,
  0xc6, 0x63, 0x06, 0xbf, 0xf8, 0xbe, 0xf9, 0xbe, 0x69, 0x1b, 0x0f, 0xbf,
  0xc8, 0x1b, 0x90, 0xbc, 0x24, 0xd0, 0x09, 0xbf, 0x63, 0xf2, 0x63, 0xbe,
  0x7e, 0x45, 0x08, 0xbf, 0xca, 0x83, 0x19, 0xbf, 0x16, 0xdd, 0x37, 0xbf,
  0x3a, 0x04, 0x7b, 0xbf, 0x3e, 0x03, 0x62, 0x3e, 0xf3, 0x99, 0xd9, 0x3d,
  0x30, 0xda, 0x06, 0xbf, 0xb4, 0xfb, 0xff, 0xff, 0xb8, 0xfb, 0xff, 0xff,
  0x0f, 0x00, 0x00, 0x00, 0x4d, 0x4c, 0x49, 0x52, 0x20, 0x43, 0x6f, 0x6e,
  0x76, 0x65, 0x72, 0x74, 0x65, 0x64, 0x2e, 0x00, 0x01, 0x00, 0x00, 0x00,
  0x14, 0x00, 0x00, 0x00, 0x00, 0x00, 0x0e, 0x00, 0x18, 0x00, 0x14, 0x00,
  0x10, 0x00, 0x0c, 0x00, 0x08, 0x00, 0x04, 0x00, 0x0e, 0x00, 0x00, 0x00,
  0x14, 0x00, 0x00, 0x00, 0x1c, 0x00, 0x00, 0x00, 0xec, 0x00, 0x00, 0x00,
  0xf0, 0x00, 0x00, 0x00, 0xf4, 0x00, 0x00, 0x00, 0x04, 0x00, 0x00, 0x00,
  0x6d, 0x61, 0x69, 0x6e, 0x00, 0x00, 0x00, 0x00, 0x03, 0x00, 0x00, 0x00,
  0x94, 0x00, 0x00, 0x00, 0x50, 0x00, 0x00, 0x00, 0x14, 0x00, 0x00, 0x00,
  0x00, 0x00, 0x0e, 0x00, 0x1a, 0x00, 0x14, 0x00, 0x10, 0x00, 0x0c, 0x00,
  0x0b, 0x00, 0x04, 0x00, 0x0e, 0x00, 0x00, 0x00, 0x1c, 0x00, 0x00, 0x00,
  0x00, 0x00, 0x00, 0x09, 0x1c, 0x00, 0x00, 0x00, 0x20, 0x00, 0x00, 0x00,
  0x01, 0x00, 0x00, 0x00, 0x00, 0x00, 0x06, 0x00, 0x08, 0x00, 0x04, 0x00,
  0x06, 0x00, 0x00, 0x00, 0x00, 0x00, 0x80, 0x3f, 0x01, 0x00, 0x00, 0x00,
  0x07, 0x00, 0x00, 0x00, 0x01, 0x00, 0x00, 0x00, 0x06, 0x00, 0x00, 0x00,
  0xce, 0xff, 0xff, 0xff, 0x10, 0x00, 0x00, 0x00, 0x00, 0x00, 0x00, 0x08,
  0x0c, 0x00, 0x00, 0x00, 0x10, 0x00, 0x00, 0x00, 0x78, 0xfc, 0xff, 0xff,
  0x01, 0x00, 0x00, 0x00, 0x06, 0x00, 0x00, 0x00, 0x03, 0x00, 0x00, 0x00,
  0x05, 0x00, 0x00, 0x00, 0x01, 0x00, 0x00, 0x00, 0x02, 0x00, 0x00, 0x00,
  0x00, 0x00, 0x0e, 0x00, 0x16, 0x00, 0x00, 0x00, 0x10, 0x00, 0x0c, 0x00,
  0x0b, 0x00, 0x04, 0x00, 0x0e, 0x00, 0x00, 0x00, 0x18, 0x00, 0x00, 0x00,
  0x00, 0x00, 0x00, 0x08, 0x18, 0x00, 0x00, 0x00, 0x1c, 0x00, 0x00, 0x00,
  0x00, 0x00, 0x06, 0x00, 0x08, 0x00, 0x07, 0x00, 0x06, 0x00, 0x00, 0x00,
  0x00, 0x00, 0x00, 0x01, 0x01, 0x00, 0x00, 0x00, 0x05, 0x00, 0x00, 0x00,
  0x03, 0x00, 0x00, 0x00, 0x00, 0x00, 0x00, 0x00, 0x04, 0x00, 0x00, 0x00,
  0x03, 0x00, 0x00, 0x00, 0x01, 0x00, 0x00, 0x00, 0x07, 0x00, 0x00, 0x00,
  0x01, 0x00, 0x00, 0x00, 0x00, 0x00, 0x00, 0x00, 0x08, 0x00, 0x00, 0x00,
  0xe4, 0x02, 0x00, 0x00, 0x8c, 0x02, 0x00, 0x00, 0x18, 0x02, 0x00, 0x00,
  0xc0, 0x01, 0x00, 0x00, 0x74, 0x01, 0x00, 0x00, 0xe0, 0x00, 0x00, 0x00,
  0x60, 0x00, 0x00, 0x00, 0x04, 0x00, 0x00, 0x00, 0x52, 0xfd, 0xff, 0xff,
  0x00, 0x00, 0x00, 0x01, 0x14, 0x00, 0x00, 0x00, 0x1c, 0x00, 0x00, 0x00,
  0x1c, 0x00, 0x00, 0x00, 0x08, 0x00, 0x00, 0x00, 0x34, 0x00, 0x00, 0x00,
  0x02, 0x00, 0x00, 0x00, 0xff, 0xff, 0xff, 0xff, 0x05, 0x00, 0x00, 0x00,
  0x3c, 0xfd, 0xff, 0xff, 0x1b, 0x00, 0x00, 0x00, 0x53, 0x74, 0x61, 0x74,
  0x65, 0x66, 0x75, 0x6c, 0x50, 0x61, 0x72, 0x74, 0x69, 0x74, 0x69, 0x6f,
  0x6e, 0x65, 0x64, 0x43, 0x61, 0x6c, 0x6c, 0x5f, 0x31, 0x3a, 0x30, 0x00,
  0x02, 0x00, 0x00, 0x00, 0x01, 0x00, 0x00, 0x00, 0x05, 0x00, 0x00, 0x00,
  0xaa, 0xfd, 0xff, 0xff, 0x00, 0x00, 0x00, 0x01, 0x14, 0x00, 0x00, 0x00,
  0x1c, 0x00, 0x00, 0x00, 0x1c, 0x00, 0x00, 0x00, 0x07, 0x00, 0x00, 0x00,
  0x58, 0x00, 0x00, 0x00, 0x02, 0x00, 0x00, 0x00, 0xff, 0xff, 0xff, 0xff,
  0x05, 0x00, 0x00, 0x00, 0x94, 0xfd, 0xff, 0xff, 0x3c, 0x00, 0x00, 0x00,
  0x73, 0x65, 0x71, 0x75, 0x65, 0x6e, 0x74, 0x69, 0x61, 0x6c, 0x5f, 0x31,
  0x2f, 0x64, 0x65, 0x6e, 0x73, 0x65, 0x5f, 0x31, 0x5f, 0x32, 0x2f, 0x4d,
  0x61, 0x74, 0x4d, 0x75, 0x6c, 0x3b, 0x73, 0x65, 0x71, 0x75, 0x65, 0x6e,
  0x74, 0x69, 0x61, 0x6c, 0x5f, 0x31, 0x2f, 0x64, 0x65, 0x6e, 0x73, 0x65,
  0x5f, 0x31, 0x5f, 0x32, 0x2f, 0x42, 0x69, 0x61, 0x73, 0x41, 0x64, 0x64,
  0x00, 0x00, 0x00, 0x00, 0x02, 0x00, 0x00, 0x00, 0x01, 0x00, 0x00, 0x00,
  0x05, 0x00, 0x00, 0x00, 0x26, 0xfe, 0xff, 0xff, 0x00, 0x00, 0x00, 0x01,
  0x14, 0x00, 0x00, 0x00, 0x1c, 0x00, 0x00, 0x00, 0x1c, 0x00, 0x00, 0x00,
  0x06, 0x00, 0x00, 0x00, 0x6c, 0x00, 0x00, 0x00, 0x02, 0x00, 0x00, 0x00,
  0xff, 0xff, 0xff, 0xff, 0x10, 0x00, 0x00, 0x00, 0x10, 0xfe, 0xff, 0xff,
  0x52, 0x00, 0x00, 0x00, 0x73, 0x65, 0x71, 0x75, 0x65, 0x6e, 0x74, 0x69,
  0x61, 0x6c, 0x5f, 0x31, 0x2f, 0x64, 0x65, 0x6e, 0x73, 0x65, 0x5f, 0x31,
  0x2f, 0x4d, 0x61, 0x74, 0x4d, 0x75, 0x6c, 0x3b, 0x73, 0x65, 0x71, 0x75,
  0x65, 0x6e, 0x74, 0x69, 0x61, 0x6c, 0x5f, 0x31, 0x2f, 0x64, 0x65, 0x6e,
  0x73, 0x65, 0x5f, 0x31, 0x2f, 0x52, 0x65, 0x6c, 0x75, 0x3b, 0x73, 0x65,
  0x71, 0x75, 0x65, 0x6e, 0x74, 0x69, 0x61, 0x6c, 0x5f, 0x31, 0x2f, 0x64,
  0x65, 0x6e, 0x73, 0x65, 0x5f, 0x31, 0x2f, 0x42, 0x69, 0x61, 0x73, 0x41,
  0x64, 0x64, 0x00, 0x00, 0x02, 0x00, 0x00, 0x00, 0x01, 0x00, 0x00, 0x00,
  0x10, 0x00, 0x00, 0x00, 0x0a, 0xff, 0xff, 0xff, 0x00, 0x00, 0x00, 0x01,
  0x10, 0x00, 0x00, 0x00, 0x10, 0x00, 0x00, 0x00, 0x05, 0x00, 0x00, 0x00,
  0x28, 0x00, 0x00, 0x00, 0x90, 0xfe, 0xff, 0xff, 0x1b, 0x00, 0x00, 0x00,
  0x73, 0x65, 0x71, 0x75, 0x65, 0x6e, 0x74, 0x69, 0x61, 0x6c, 0x5f, 0x31,
  0x2f, 0x64, 0x65, 0x6e, 0x73, 0x65, 0x5f, 0x31, 0x2f, 0x4d, 0x61, 0x74,
  0x4d, 0x75, 0x6c, 0x00, 0x02, 0x00, 0x00, 0x00, 0x10, 0x00, 0x00, 0x00,
  0x0f, 0x00, 0x00, 0x00, 0x52, 0xff, 0xff, 0xff, 0x00, 0x00, 0x00, 0x01,
  0x10, 0x00, 0x00, 0x00, 0x10, 0x00, 0x00, 0x00, 0x04, 0x00, 0x00, 0x00,
  0x38, 0x00, 0x00, 0x00, 0xd8, 0xfe, 0xff, 0xff, 0x2b, 0x00, 0x00, 0x00,
  0x73, 0x65, 0x71, 0x75, 0x65, 0x6e, 0x74, 0x69, 0x61, 0x6c, 0x5f, 0x31,
  0x2f, 0x64, 0x65, 0x6e, 0x73, 0x65, 0x5f, 0x31, 0x2f, 0x42, 0x69, 0x61,
  0x73, 0x41, 0x64, 0x64, 0x2f, 0x52, 0x65, 0x61, 0x64, 0x56, 0x61, 0x72,
  0x69, 0x61, 0x62, 0x6c, 0x65, 0x4f, 0x70, 0x00, 0x01, 0x00, 0x00, 0x00,
  0x10, 0x00, 0x00, 0x00, 0xa6, 0xff, 0xff, 0xff, 0x00, 0x00, 0x00, 0x01,
  0x10, 0x00, 0x00, 0x00, 0x10, 0x00, 0x00, 0x00, 0x03, 0x00, 0x00, 0x00,
  0x3c, 0x00, 0x00, 0x00, 0x2c, 0xff, 0xff, 0xff, 0x2d, 0x00, 0x00, 0x00,
  0x73, 0x65, 0x71, 0x75, 0x65, 0x6e, 0x74, 0x69, 0x61, 0x6c, 0x5f, 0x31,
  0x2f, 0x64, 0x65, 0x6e, 0x73, 0x65, 0x5f, 0x31, 0x5f, 0x32, 0x2f, 0x42,
  0x69, 0x61, 0x73, 0x41, 0x64, 0x64, 0x2f, 0x52, 0x65, 0x61, 0x64, 0x56,
  0x61, 0x72, 0x69, 0x61, 0x62, 0x6c, 0x65, 0x4f, 0x70, 0x00, 0x00, 0x00,
  0x01, 0x00, 0x00, 0x00, 0x05, 0x00, 0x00, 0x00, 0x00, 0x00, 0x16, 0x00,
  0x18, 0x00, 0x14, 0x00, 0x00, 0x00, 0x10, 0x00, 0x0c, 0x00, 0x08, 0x00,
  0x00, 0x00, 0x00, 0x00, 0x00, 0x00, 0x07, 0x00, 0x16, 0x00, 0x00, 0x00,
  0x00, 0x00, 0x00, 0x01, 0x10, 0x00, 0x00, 0x00, 0x10, 0x00, 0x00, 0x00,
  0x02, 0x00, 0x00, 0x00, 0x1c, 0x00, 0x00, 0x00, 0x9c, 0xff, 0xff, 0xff,
  0x0e, 0x00, 0x00, 0x00, 0x61, 0x72, 0x69, 0x74, 0x68, 0x2e, 0x63, 0x6f,
  0x6e, 0x73, 0x74, 0x61, 0x6e, 0x74, 0x00, 0x00, 0x02, 0x00, 0x00, 0x00,
  0x05, 0x00, 0x00, 0x00, 0x10, 0x00, 0x00, 0x00, 0x00, 0x00, 0x16, 0x00,
  0x1c, 0x00, 0x18, 0x00, 0x00, 0x00, 0x14, 0x00, 0x10, 0x00, 0x0c, 0x00,
  0x00, 0x00, 0x00, 0x00, 0x08, 0x00, 0x07, 0x00, 0x16, 0x00, 0x00, 0x00,
  0x00, 0x00, 0x00, 0x01, 0x14, 0x00, 0x00, 0x00, 0x20, 0x00, 0x00, 0x00,
  0x20, 0x00, 0x00, 0x00, 0x01, 0x00, 0x00, 0x00, 0x3c, 0x00, 0x00, 0x00,
  0x02, 0x00, 0x00, 0x00, 0xff, 0xff, 0xff, 0xff, 0x0f, 0x00, 0x00, 0x00,
  0x04, 0x00, 0x04, 0x00, 0x04, 0x00, 0x00, 0x00, 0x1e, 0x00, 0x00, 0x00,
  0x73, 0x65, 0x72, 0x76, 0x69, 0x6e, 0x67, 0x5f, 0x64, 0x65, 0x66, 0x61,
  0x75, 0x6c, 0x74, 0x5f, 0x6b, 0x65, 0x72, 0x61, 0x73, 0x5f, 0x74, 0x65,
  0x6e, 0x73, 0x6f, 0x72, 0x3a, 0x30, 0x00, 0x00, 0x02, 0x00, 0x00, 0x00,
  0x01, 0x00, 0x00, 0x00, 0x0f, 0x00, 0x00, 0x00, 0x02, 0x00, 0x00, 0x00,
  0x20, 0x00, 0x00, 0x00, 0x04, 0x00, 0x00, 0x00, 0xf4, 0xff, 0xff, 0xff,
  0x19, 0x00, 0x00, 0x00, 0x00, 0x00, 0x00, 0x19, 0x0c, 0x00, 0x0c, 0x00,
  0x0b, 0x00, 0x00, 0x00, 0x00, 0x00, 0x04, 0x00, 0x0c, 0x00, 0x00, 0x00,
  0x09, 0x00, 0x00, 0x00, 0x00, 0x00, 0x00, 0x09
};
unsigned int water_level_model_tflite_len = 3092;
